{
  "version": "1.0",
  "truncation": null,
  "padding": null,
  "added_tokens": [
    {
      "id": 0,
      "content": "[UNK]",
      "single_word": false,
      "lstrip": false,
      "rstrip": false,
      "normalized": false,
      "special": true
    }
  ],
  "normalizer": null,
  "pre_tokenizer": {
    "type": "ByteLevel",
    "add_prefix_space": false,
    "trim_offsets": true,
    "use_regex": true
  },
  "post_processor": null,
  "decoder": {
    "type": "ByteLevel",
    "add_prefix_space": true,
    "trim_offsets": true,
    "use_regex": true
  },
  "model": {
    "type": "BPE",
    "dropout": null,
    "unk_token": "[UNK]",
    "continuing_subword_prefix": null,
    "end_of_word_suffix": null,
    "fuse_unk": false,
    "byte_fallback": false,
    "ignore_merges": false,
    "vocab": {
      "[UNK]": 0,
      ".": 1,
      "?": 2,
      "A": 3,
      "B": 4,
      "C": 5,
      "D": 6,
      "G": 7,
      "I": 8,
      "M": 9,
      "N": 10,
      "O": 11,
      "P": 12,
      "Q": 13,
      "R": 14,
      "S": 15,
      "T": 16,
      "U": 17,
      "W": 18,
      "a": 19,
      "b": 20,
      "c": 21,
      "d": 22,
      "e": 23,
      "f": 24,
      "g": 25,
      "h": 26,
      "i": 27,
      "j": 28,
      "k": 29,
      "l": 30,
      "m": 31,
      "n": 32,
      "o": 33,
      "p": 34,
      "r": 35,
      "s": 36,
      "t": 37,
      "u": 38,
      "v": 39,
      "w": 40,
      "x": 41,
      "y": 42,
      "¡": 43,
      "¤": 44,
      "¥": 45,
      "¦": 46,
      "¨": 47,
      "ª": 48,
      "«": 49,
      "¬": 50,
      "®": 51,
      "¯": 52,
      "°": 53,
      "²": 54,
      "¶": 55,
      "¸": 56,
      "¹": 57,
      "¼": 58,
      "¾": 59,
      "¿": 60,
      "à": 61,
      "Ċ": 62,
      "Ġ": 63,
      "Ģ": 64,
      "ģ": 65,
      "Ĥ": 66,
      "ħ": 67,
      "Ĩ": 68,
      "ĩ": 69,
      "Ī": 70,
      "ĭ": 71,
      "į": 72,
      "ı": 73,
      "ķ": 74,
      "ĸ": 75,
      "Ĺ": 76,
      "ļ": 77,
      "ľ": 78,
      "Ŀ": 79,
      "Ł": 80,
      "ł": 81,
      "à¤": 82,
      "à¥": 83,
      "Ġà¤": 84,
      "à¥ĩ": 85,
      "à¤¾": 86,
      "à¥Ģ": 87,
      "à¤Ĥ": 88,
      "Ġt": 89,
      "à¤¹": 90,
      "à¤°": 91,
      "à¥¤": 92,
      "à¥ģ": 93,
      "Ġà¤¹": 94,
      "in": 95,
      "à¥Ī": 96,
      "ar": 97,
      "he": 98,
      "à¤®": 99,
      "à¥į": 100,
      "Ġà¤®": 101,
      "à¤¤": 102,
      "à¤¨": 103,
      "à¤²": 104,
      "à¤¿": 105,
      "à¥ĩà¤Ĥ": 106,
      "an": 107,
      "ou": 108,
      "te": 109,
      "à¤¬": 110,
      "à¤¯": 111,
      "à¤ķ": 112,
      "Ġà¤ķ": 113,
      "ed": 114,
      "ee": 115,
      "on": 116,
      "or": 117,
      "ur": 118,
      "Ġc": 119,
      "Ġm": 120,
      "Ġà¤ª": 121,
      "Ġà¤°": 122,
      "Ġà¤ĸ": 123,
      "Ġthe": 124,
      "ing": 125,
      "à¥Īà¤Ĥ": 126,
      "ter": 127,
      "The": 128,
      "al": 129,
      "ay": 130,
      "bo": 131,
      "is": 132,
      "ĠM": 133,
      "Ġn": 134,
      "Ġar": 135,
      "à¤¦": 136,
      "à¤¼": 137,
      "à¤ļ": 138,
      "Ġà¤¥": 139,
      "Ġà¤¬": 140,
      "Ġà¤°à¤¹": 141,
      "à¥Īà¤Ĥà¥¤": 142,
      "day": 143,
      "ea": 144,
      "en": 145,
      "ex": 146,
      "ff": 147,
      "gh": 148,
      "ic": 149,
      "ion": 150,
      "jo": 151,
      "ly": 152,
      "ok": 153,
      "ra": 154,
      "ster": 155,
      "ting": 156,
      "up": 157,
      "ved": 158,
      "ĠI": 159,
      "ĠR": 160,
      "Ġa": 161,
      "Ġr": 162,
      "Ġs": 163,
      "Ġw": 164,
      "Ġy": 165,
      "Ġin": 166,
      "Ġan": 167,
      "Ġon": 168,
      "Ġbo": 169,
      "Ġjo": 170,
      "Ĩà¤": 171,
      "Ĺà¤²": 172,
      "à¤«": 173,
      "à¤¸": 174,
      "à¤Ŀ": 175,
      "à¤Ł": 176,
      "à¤Ĺà¤²": 177,
      "à¥ĭ": 178,
      "Ġà¤¸": 179,
      "Ġà¤ħ": 180,
      "Ġà¤ļ": 181,
      "à¥Ģà¥¤": 182,
      "Ġtra": 183,
      "à¥Īà¥¤": 184,
      "oun": 185,
      "uru": 186,
      "Ġare": 187,
      "à¤¼à¥į": 188,
      "Ġà¤¬à¤¹": 189,
      "ght": 190,
      "Ġbook": 191,
      "Ĩà¤ľ": 192,
      "AS": 193,
      "Ai": 194,
      "Ben": 195,
      "Ch": 196,
      "Do": 197,
      "GP": 198,
      "NAS": 199,
      "Pl": 200,
      "Qu": 201,
      "RO": 202,
      "SRO": 203,
      "Th": 204,
      "We": 205,
      "ac": 206,
      "ad": 207,
      "at": 208,
      "ate": 209,
      "bou": 210,
      "ch": 211,
      "ced": 212,
      "cor": 213,
      "dl": 214,
      "dr": 215,
      "dur": 216,
      "date": 217,
      "em": 218,
      "et": 219,
      "ev": 220,
      "ew": 221,
      "ear": 222,
      "ester": 223,
      "ecor": 224,
      "fr": 225,
      "gr": 226,
      "gal": 227,
      "ho": 228,
      "han": 229,
      "his": 230,
      "il": 231,
      "im": 232,
      "iting": 233,
      "ived": 234,
      "ight": 235,
      "iew": 236,
      "kee": 237,
      "ket": 238,
      "lu": 239,
      "lay": 240,
      "mal": 241,
      "nter": 242,
      "noun": 243,
      "nat": 244,
      "of": 245,
      "om": 246,
      "off": 247,
      "oved": 248,
      "oad": 249,
      "por": 250,
      "play": 251,
      "ric": 252,
      "rived": 253,
      "rpor": 254,
      "se": 255,
      "sday": 256,
      "sion": 257,
      "suru": 258,
      "tly": 259,
      "vis": 260,
      "ysuru": 261,
      "¦à¤«": 262,
      "Ġou": 263,
      "Ġor": 264,
      "Ġex": 265,
      "Ġup": 266,
      "ĠAi": 267,
      "ĠGP": 268,
      "ĠQu": 269,
      "ĠTh": 270,
      "Ġbou": 271,
      "Ġdur": 272,
      "Ġfr": 273,
      "Ġgr": 274,
      "Ġhan": 275,
      "Ġkee": 276,
      "Ġof": 277,
      "Ġplay": 278,
      "Ġvis": 279,
      "à¤¡": 280,
      "à¤¶": 281,
      "à¤ģ": 282,
      "à¤ı": 283,
      "à¤ĸ": 284,
      "à¤Ĩà¤ľ": 285,
      "à¥Ĥ": 286,
      "Ġà¤¤": 287,
      "Ġà¤²": 288,
      "Ġà¤ľ": 289,
      "Ġà¤ł": 290,
      "Ġà¤Ĩà¤ľ": 291,
      "Ġà¤¦à¤«": 292,
      "à¤¾?": 293,
      "à¤¾à¥¤": 294,
      "Ġto": 295,
      "Ġtea": 296,
      "Ġthis": 297,
      "Ġtim": 298,
      "à¤¹à¤®": 299,
      "à¥ģà¤ģ": 300,
      "Ġà¤¹à¤²": 301,
      "Ġà¤¹à¤«": 302,
      "int": 303,
      "ard": 304,
      "arter": 305,
      "arch": 306,
      "à¤®à¤¨": 307,
      "à¤®à¤¯": 308,
      "à¤¤à¤°": 309,
      "à¤²à¤®": 310,
      "ant": 311,
      "à¤¬à¤¹": 312,
      "à¤¬à¤ļ": 313,
      "à¤¯à¤¹": 314,
      "Ġà¤ķà¤²": 315,
      "eek": 316,
      "eeting": 317,
      "ory": 318,
      "ursday": 319,
      "Ġcup": 320,
      "Ġclu": 321,
      "Ġcoff": 322,
      "Ġcric": 323,
      "Ġmis": 324,
      "Ġmem": 325,
      "Ġmoved": 326,
      "Ġmeeting": 327,
      "Ġà¤ªà¤¹": 328,
      "Ġà¤ªà¤°": 329,
      "Ġà¤ªà¤¸": 330,
      "Ġà¤°à¤ĸ": 331,
      "Ġà¤ĸà¤°": 332,
      "board": 333,
      "ĠMG": 334,
      "ĠMysuru": 335,
      "ĠMarch": 336,
      "Ġnex": 337,
      "Ġnear": 338,
      "Ġnight": 339,
      "Ġarrived": 340,
      "à¤¼à¤¾": 341,
      "ease": 342,
      "ffic": 343,
      "ional": 344,
      "ĠISRO": 345,
      "ĠInter": 346,
      "ĠRev": 347,
      "ĠRoad": 348,
      "Ġran": 349,
      "Ġrecor": 350,
      "Ġsho": 351,
      "Ġsmal": 352,
      "Ġwant": 353,
      "Ġweek": 354,
      "Ġyou": 355,
      "Ġyester": 356,
      "Ġand": 357,
      "Ġannoun": 358,
      "Ġjob": 359,
      "Ġjoint": 360,
      "Ġà¤¸à¤®à¤¯": 361,
      "Ġà¤ħà¤Ĺà¤²": 362,
      "Ġà¤ħà¤²à¤®": 363,
      "Ġtrain": 364,
      "Ġtraffic": 365,
      "ound": 366,
      "Ġbooks": 367,
      "Bengal": 368,
      "Chil": 369,
      "NASA": 370,
      "Please": 371,
      "actly": 372,
      "dled": 373,
      "dren": 374,
      "national": 375,
      "rport": 376,
      "Ġout": 377,
      "Ġexactly": 378,
      "Ġupdate": 379,
      "ĠAirport": 380,
      "ĠGPU": 381,
      "ĠQuarter": 382,
      "ĠThursday": 383,
      "Ġbought": 384,
      "Ġduring": 385,
      "Ġfrom": 386,
      "Ġground": 387,
      "Ġhandled": 388,
      "Ġkeep": 389,
      "Ġplaying": 390,
      "Ġvisiting": 391,
      "Ġtime": 392,
      "Ġcupboard": 393,
      "Ġcluster": 394,
      "Ġcoffee": 395,
      "Ġcricket": 396,
      "Ġmission": 397,
      "Ġmemory": 398,
      "Ġnext": 399,
      "ĠInternational": 400,
      "ĠReview": 401,
      "Ġrecord": 402,
      "Ġshop": 403,
      "Ġsmall": 404,
      "Ġyesterday": 405,
      "Ġannounced": 406,
      "Bengaluru": 407,
      "Children": 408,
      "ĠQuarterly": 409
    },
    "merges": [
      [
        "à",
        "¤"
      ],
      [
        "à",
        "¥"
      ],
      [
        "Ġ",
        "à¤"
      ],
      [
        "à¥",
        "ĩ"
      ],
      [
        "à¤",
        "¾"
      ],
      [
        "à¥",
        "Ģ"
      ],
      [
        "à¤",
        "Ĥ"
      ],
      [
        "Ġ",
        "t"
      ],
      [
        "à¤",
        "¹"
      ],
      [
        "à¤",
        "°"
      ],
      [
        "à¥",
        "¤"
      ],
      [
        "à¥",
        "ģ"
      ],
      [
        "Ġà¤",
        "¹"
      ],
      [
        "i",
        "n"
      ],
      [
        "à¥",
        "Ī"
      ],
      [
        "a",
        "r"
      ],
      [
        "h",
        "e"
      ],
      [
        "à¤",
        "®"
      ],
      [
        "à¥",
        "į"
      ],
      [
        "Ġà¤",
        "®"
      ],
      [
        "à¤",
        "¤"
      ],
      [
        "à¤",
        "¨"
      ],
      [
        "à¤",
        "²"
      ],
      [
        "à¤",
        "¿"
      ],
      [
        "à¥ĩ",
        "à¤Ĥ"
      ],
      [
        "a",
        "n"
      ],
      [
        "o",
        "u"
      ],
      [
        "t",
        "e"
      ],
      [
        "à¤",
        "¬"
      ],
      [
        "à¤",
        "¯"
      ],
      [
        "à¤",
        "ķ"
      ],
      [
        "Ġà¤",
        "ķ"
      ],
      [
        "e",
        "d"
      ],
      [
        "e",
        "e"
      ],
      [
        "o",
        "n"
      ],
      [
        "o",
        "r"
      ],
      [
        "u",
        "r"
      ],
      [
        "Ġ",
        "c"
      ],
      [
        "Ġ",
        "m"
      ],
      [
        "Ġà¤",
        "ª"
      ],
      [
        "Ġà¤",
        "°"
      ],
      [
        "Ġà¤",
        "ĸ"
      ],
      [
        "Ġt",
        "he"
      ],
      [
        "in",
        "g"
      ],
      [
        "à¥Ī",
        "à¤Ĥ"
      ],
      [
        "te",
        "r"
      ],
      [
        "T",
        "he"
      ],
      [
        "a",
        "l"
      ],
      [
        "a",
        "y"
      ],
      [
        "b",
        "o"
      ],
      [
        "i",
        "s"
      ],
      [
        "Ġ",
        "M"
      ],
      [
        "Ġ",
        "n"
      ],
      [
        "Ġ",
        "ar"
      ],
      [
        "à¤",
        "¦"
      ],
      [
        "à¤",
        "¼"
      ],
      [
        "à¤",
        "ļ"
      ],
      [
        "Ġà¤",
        "¥"
      ],
      [
        "Ġà¤",
        "¬"
      ],
      [
        "Ġà¤°",
        "à¤¹"
      ],
      [
        "à¥Īà¤Ĥ",
        "à¥¤"
      ],
      [
        "d",
        "ay"
      ],
      [
        "e",
        "a"
      ],
      [
        "e",
        "n"
      ],
      [
        "e",
        "x"
      ],
      [
        "f",
        "f"
      ],
      [
        "g",
        "h"
      ],
      [
        "i",
        "c"
      ],
      [
        "i",
        "on"
      ],
      [
        "j",
        "o"
      ],
      [
        "l",
        "y"
      ],
      [
        "o",
        "k"
      ],
      [
        "r",
        "a"
      ],
      [
        "s",
        "ter"
      ],
      [
        "t",
        "ing"
      ],
      [
        "u",
        "p"
      ],
      [
        "v",
        "ed"
      ],
      [
        "Ġ",
        "I"
      ],
      [
        "Ġ",
        "R"
      ],
      [
        "Ġ",
        "a"
      ],
      [
        "Ġ",
        "r"
      ],
      [
        "Ġ",
        "s"
      ],
      [
        "Ġ",
        "w"
      ],
      [
        "Ġ",
        "y"
      ],
      [
        "Ġ",
        "in"
      ],
      [
        "Ġ",
        "an"
      ],
      [
        "Ġ",
        "on"
      ],
      [
        "Ġ",
        "bo"
      ],
      [
        "Ġ",
        "jo"
      ],
      [
        "Ĩ",
        "à¤"
      ],
      [
        "Ĺ",
        "à¤²"
      ],
      [
        "à¤",
        "«"
      ],
      [
        "à¤",
        "¸"
      ],
      [
        "à¤",
        "Ŀ"
      ],
      [
        "à¤",
        "Ł"
      ],
      [
        "à¤",
        "Ĺà¤²"
      ],
      [
        "à¥",
        "ĭ"
      ],
      [
        "Ġà¤",
        "¸"
      ],
      [
        "Ġà¤",
        "ħ"
      ],
      [
        "Ġà¤",
        "ļ"
      ],
      [
        "à¥Ģ",
        "à¥¤"
      ],
      [
        "Ġt",
        "ra"
      ],
      [
        "à¥Ī",
        "à¥¤"
      ],
      [
        "ou",
        "n"
      ],
      [
        "ur",
        "u"
      ],
      [
        "Ġar",
        "e"
      ],
      [
        "à¤¼",
        "à¥į"
      ],
      [
        "Ġà¤¬",
        "à¤¹"
      ],
      [
        "gh",
        "t"
      ],
      [
        "Ġbo",
        "ok"
      ],
      [
        "Ĩà¤",
        "ľ"
      ],
      [
        "A",
        "S"
      ],
      [
        "A",
        "i"
      ],
      [
        "B",
        "en"
      ],
      [
        "C",
        "h"
      ],
      [
        "D",
        "o"
      ],
      [
        "G",
        "P"
      ],
      [
        "N",
        "AS"
      ],
      [
        "P",
        "l"
      ],
      [
        "Q",
        "u"
      ],
      [
        "R",
        "O"
      ],
      [
        "S",
        "RO"
      ],
      [
        "T",
        "h"
      ],
      [
        "W",
        "e"
      ],
      [
        "a",
        "c"
      ],
      [
        "a",
        "d"
      ],
      [
        "a",
        "t"
      ],
      [
        "a",
        "te"
      ],
      [
        "b",
        "ou"
      ],
      [
        "c",
        "h"
      ],
      [
        "c",
        "ed"
      ],
      [
        "c",
        "or"
      ],
      [
        "d",
        "l"
      ],
      [
        "d",
        "r"
      ],
      [
        "d",
        "ur"
      ],
      [
        "d",
        "ate"
      ],
      [
        "e",
        "m"
      ],
      [
        "e",
        "t"
      ],
      [
        "e",
        "v"
      ],
      [
        "e",
        "w"
      ],
      [
        "e",
        "ar"
      ],
      [
        "e",
        "ster"
      ],
      [
        "e",
        "cor"
      ],
      [
        "f",
        "r"
      ],
      [
        "g",
        "r"
      ],
      [
        "g",
        "al"
      ],
      [
        "h",
        "o"
      ],
      [
        "h",
        "an"
      ],
      [
        "h",
        "is"
      ],
      [
        "i",
        "l"
      ],
      [
        "i",
        "m"
      ],
      [
        "i",
        "ting"
      ],
      [
        "i",
        "ved"
      ],
      [
        "i",
        "ght"
      ],
      [
        "i",
        "ew"
      ],
      [
        "k",
        "ee"
      ],
      [
        "k",
        "et"
      ],
      [
        "l",
        "u"
      ],
      [
        "l",
        "ay"
      ],
      [
        "m",
        "al"
      ],
      [
        "n",
        "ter"
      ],
      [
        "n",
        "oun"
      ],
      [
        "n",
        "at"
      ],
      [
        "o",
        "f"
      ],
      [
        "o",
        "m"
      ],
      [
        "o",
        "ff"
      ],
      [
        "o",
        "ved"
      ],
      [
        "o",
        "ad"
      ],
      [
        "p",
        "or"
      ],
      [
        "p",
        "lay"
      ],
      [
        "r",
        "ic"
      ],
      [
        "r",
        "ived"
      ],
      [
        "r",
        "por"
      ],
      [
        "s",
        "e"
      ],
      [
        "s",
        "day"
      ],
      [
        "s",
        "ion"
      ],
      [
        "s",
        "uru"
      ],
      [
        "t",
        "ly"
      ],
      [
        "v",
        "is"
      ],
      [
        "y",
        "suru"
      ],
      [
        "¦",
        "à¤«"
      ],
      [
        "Ġ",
        "ou"
      ],
      [
        "Ġ",
        "or"
      ],
      [
        "Ġ",
        "ex"
      ],
      [
        "Ġ",
        "up"
      ],
      [
        "Ġ",
        "Ai"
      ],
      [
        "Ġ",
        "GP"
      ],
      [
        "Ġ",
        "Qu"
      ],
      [
        "Ġ",
        "Th"
      ],
      [
        "Ġ",
        "bou"
      ],
      [
        "Ġ",
        "dur"
      ],
      [
        "Ġ",
        "fr"
      ],
      [
        "Ġ",
        "gr"
      ],
      [
        "Ġ",
        "han"
      ],
      [
        "Ġ",
        "kee"
      ],
      [
        "Ġ",
        "of"
      ],
      [
        "Ġ",
        "play"
      ],
      [
        "Ġ",
        "vis"
      ],
      [
        "à¤",
        "¡"
      ],
      [
        "à¤",
        "¶"
      ],
      [
        "à¤",
        "ģ"
      ],
      [
        "à¤",
        "ı"
      ],
      [
        "à¤",
        "ĸ"
      ],
      [
        "à¤",
        "Ĩà¤ľ"
      ],
      [
        "à¥",
        "Ĥ"
      ],
      [
        "Ġà¤",
        "¤"
      ],
      [
        "Ġà¤",
        "²"
      ],
      [
        "Ġà¤",
        "ľ"
      ],
      [
        "Ġà¤",
        "ł"
      ],
      [
        "Ġà¤",
        "Ĩà¤ľ"
      ],
      [
        "Ġà¤",
        "¦à¤«"
      ],
      [
        "à¤¾",
        "?"
      ],
      [
        "à¤¾",
        "à¥¤"
      ],
      [
        "Ġt",
        "o"
      ],
      [
        "Ġt",
        "ea"
      ],
      [
        "Ġt",
        "his"
      ],
      [
        "Ġt",
        "im"
      ],
      [
        "à¤¹",
        "à¤®"
      ],
      [
        "à¥ģ",
        "à¤ģ"
      ],
      [
        "Ġà¤¹",
        "à¤²"
      ],
      [
        "Ġà¤¹",
        "à¤«"
      ],
      [
        "in",
        "t"
      ],
      [
        "ar",
        "d"
      ],
      [
        "ar",
        "ter"
      ],
      [
        "ar",
        "ch"
      ],
      [
        "à¤®",
        "à¤¨"
      ],
      [
        "à¤®",
        "à¤¯"
      ],
      [
        "à¤¤",
        "à¤°"
      ],
      [
        "à¤²",
        "à¤®"
      ],
      [
        "an",
        "t"
      ],
      [
        "à¤¬",
        "à¤¹"
      ],
      [
        "à¤¬",
        "à¤ļ"
      ],
      [
        "à¤¯",
        "à¤¹"
      ],
      [
        "Ġà¤ķ",
        "à¤²"
      ],
      [
        "ee",
        "k"
      ],
      [
        "ee",
        "ting"
      ],
      [
        "or",
        "y"
      ],
      [
        "ur",
        "sday"
      ],
      [
        "Ġc",
        "up"
      ],
      [
        "Ġc",
        "lu"
      ],
      [
        "Ġc",
        "off"
      ],
      [
        "Ġc",
        "ric"
      ],
      [
        "Ġm",
        "is"
      ],
      [
        "Ġm",
        "em"
      ],
      [
        "Ġm",
        "oved"
      ],
      [
        "Ġm",
        "eeting"
      ],
      [
        "Ġà¤ª",
        "à¤¹"
      ],
      [
        "Ġà¤ª",
        "à¤°"
      ],
      [
        "Ġà¤ª",
        "à¤¸"
      ],
      [
        "Ġà¤°",
        "à¤ĸ"
      ],
      [
        "Ġà¤ĸ",
        "à¤°"
      ],
      [
        "bo",
        "ard"
      ],
      [
        "ĠM",
        "G"
      ],
      [
        "ĠM",
        "ysuru"
      ],
      [
        "ĠM",
        "arch"
      ],
      [
        "Ġn",
        "ex"
      ],
      [
        "Ġn",
        "ear"
      ],
      [
        "Ġn",
        "ight"
      ],
      [
        "Ġar",
        "rived"
      ],
      [
        "à¤¼",
        "à¤¾"
      ],
      [
        "ea",
        "se"
      ],
      [
        "ff",
        "ic"
      ],
      [
        "ion",
        "al"
      ],
      [
        "ĠI",
        "SRO"
      ],
      [
        "ĠI",
        "nter"
      ],
      [
        "ĠR",
        "ev"
      ],
      [
        "ĠR",
        "oad"
      ],
      [
        "Ġr",
        "an"
      ],
      [
        "Ġr",
        "ecor"
      ],
      [
        "Ġs",
        "ho"
      ],
      [
        "Ġs",
        "mal"
      ],
      [
        "Ġw",
        "ant"
      ],
      [
        "Ġw",
        "eek"
      ],
      [
        "Ġy",
        "ou"
      ],
      [
        "Ġy",
        "ester"
      ],
      [
        "Ġan",
        "d"
      ],
      [
        "Ġan",
        "noun"
      ],
      [
        "Ġjo",
        "b"
      ],
      [
        "Ġjo",
        "int"
      ],
      [
        "Ġà¤¸",
        "à¤®à¤¯"
      ],
      [
        "Ġà¤ħ",
        "à¤Ĺà¤²"
      ],
      [
        "Ġà¤ħ",
        "à¤²à¤®"
      ],
      [
        "Ġtra",
        "in"
      ],
      [
        "Ġtra",
        "ffic"
      ],
      [
        "oun",
        "d"
      ],
      [
        "Ġbook",
        "s"
      ],
      [
        "Ben",
        "gal"
      ],
      [
        "Ch",
        "il"
      ],
      [
        "NAS",
        "A"
      ],
      [
        "Pl",
        "ease"
      ],
      [
        "ac",
        "tly"
      ],
      [
        "dl",
        "ed"
      ],
      [
        "dr",
        "en"
      ],
      [
        "nat",
        "ional"
      ],
      [
        "rpor",
        "t"
      ],
      [
        "Ġou",
        "t"
      ],
      [
        "Ġex",
        "actly"
      ],
      [
        "Ġup",
        "date"
      ],
      [
        "ĠAi",
        "rport"
      ],
      [
        "ĠGP",
        "U"
      ],
      [
        "ĠQu",
        "arter"
      ],
      [
        "ĠTh",
        "ursday"
      ],
      [
        "Ġbou",
        "ght"
      ],
      [
        "Ġdur",
        "ing"
      ],
      [
        "Ġfr",
        "om"
      ],
      [
        "Ġgr",
        "ound"
      ],
      [
        "Ġhan",
        "dled"
      ],
      [
        "Ġkee",
        "p"
      ],
      [
        "Ġplay",
        "ing"
      ],
      [
        "Ġvis",
        "iting"
      ],
      [
        "Ġtim",
        "e"
      ],
      [
        "Ġcup",
        "board"
      ],
      [
        "Ġclu",
        "ster"
      ],
      [
        "Ġcoff",
        "ee"
      ],
      [
        "Ġcric",
        "ket"
      ],
      [
        "Ġmis",
        "sion"
      ],
      [
        "Ġmem",
        "ory"
      ],
      [
        "Ġnex",
        "t"
      ],
      [
        "ĠInter",
        "national"
      ],
      [
        "ĠRev",
        "iew"
      ],
      [
        "Ġrecor",
        "d"
      ],
      [
        "Ġsho",
        "p"
      ],
      [
        "Ġsmal",
        "l"
      ],
      [
        "Ġyester",
        "day"
      ],
      [
        "Ġannoun",
        "ced"
      ],
      [
        "Bengal",
        "uru"
      ],
      [
        "Chil",
        "dren"
      ],
      [
        "ĠQuarter",
        "ly"
      ]
    ]
  }
}